:200000008EFD8DFF86004601F6FC320246017BFFC20027002C01F3FC79FD0D04170A120353
:20002000B3012B032E0242045FFFACFBB402F1FF1001F1FF1C051901A0FF7D030001C001A0
:200040005C0148F8D9FD2908A512530B8704790DBF01AF1C441598FA1A1965FFE9EA05E50C
:2000600097E287EABAE89EEFAEFE19FE0A00C1FEF1FE6D0213FBB1F207EAF4FF2CFF660156
:200080007E0FE10C57FC73E3C3F84BF325F66EF0CCFD9202D90C42EC41FE58FF08F1D0F00C
:2000A000A90EC20E0CFED2FC29020403AFEB36EF02EA49D5B4DA08EEE9EA3EFAD100B2FADA
:2000C000E1FCE610BF07B700EF0AF80AD5086E0153F6FBFF1D15190D840B5C19ACFB61FFE3
:2000E00068FF7D0085DEAEE1A5EBE9DF8EFC9A04C304D115E2050B046C09450ADE13170932
:2001000068059D0D5BFE70FE7B097EF7A3FEFAFC31108E1839152C046DFC65FFBED9C0F1F7
:2001200062E26FDE50FCECFA8EFD0B051A06410B32043706150946FD8B0468066C00BC09F3
:200140004B0F120707020AF6EC008F21CB0C2BE4A703CB01D7F702E156EE63F7CA06BCFE52
:200160004F044601BF045DFC4B06AD02E4FFAC05A6F9750239FC5109F80838FEF8034F020E
:20018000B9F6090A52E98E022C0266E59FFEE0F278010B0883004A03BF0F8C024E0A5F0477
:2001A000C0034D074BF96308B50432015F0CF40527FE3C09370CF3124A14C50BE6F7810CDF
:2001C00058F2FDF190F65A042102BC004AFF060936015308F70A2B05C709690F7C035905E4
:2001E0005B0FEC080A0E4C0C000BAAFFA30558217F224E0F04163D1BF8FDD1DFFDF6960BB3
:20020000C7F6F606550447FBE0015B094C08EC03D203EF0B3A023CF998026C06A60A7B0982
:200220000C0ACD0ACF0AAC1E791C9A1BA816D1EE9EFF16E29FF8D1F66002C4FEA009C60AD7
:2002400020087F0A3B1194054A03D5003E0350F4DCF527FF090B220D8609FD0DEC13FF2070
:20026000D21836F9CF01FF00D6F73BEBC0CC26FDAA07AC0DC90BB60EEB07D60AFCFF6503BD
:20028000DCFDBBFC07FA92F18AF160F54AF7EC06DBFD1A08C6157F1AE4288707031402F135
:2002A00066EEA4FCE6D1AE09CBFF810D7AF9C001FDFC53FFC1F690F5FFFEB0FD2BF4A7F663
:2002C000ACF07FFE55F2B1079009530C2406120C452860F63EF7C5EB01FAA8F2BBDCAB093E
:2002E000D0EB17FEB2EF3CFE88FCC9F857F154FCBD00580104F5D5FFB4FA81F99400410195
:200300000400ACFC9F079506430CF1115409431B4708D4E4F4D9A5073AFBE9F53303DDFB43
:20032000B4F3DAED1FFCB1006CFF88FE9CFF5BFC49F533FB2AF0CCFA1BF084E844E41BEEAC
:2003400075FFC11139200D1C8706CEF13EF23D1101FD6B003105D701F2F74DFE20F28DFAC7
:20036000C0FC57017200E2F925FAE4F780F520F52DE90CE7C8E7F2E55D03B8172310D318BC
:20038000ABF27EF378E2180949F960FF4E0EEC03B0F6860290FB4EF8C8040404AE0244031E
:2003A000C4FE76001FF5C3EEAEF24EFA72F01BF29FFA6C213024D32293FE7AE9BBE2F9F5FB
:2003C0009D024C0F410C600119041D115E0739108A0DB9050B0397FF0405C4F6C4F3C3F254
:2003E000F100B2F9050028F20909610E570900229EEA6CE040CD16ECE6089A142D117C0EF8
:200400007A17C917290FDC0A970B3B0494FBE3F9E3F33BF88DFC08020D0260003709A911FC
:200420003626E4FCDBE9A60EBCEED7E8ECD7C5E56503A707D30B580DAA1307103A17880923
:200440004C0AB30605FAD3FFC7F612050802FD026D06B801551640190B154A02A01A100CAD
:200460003B03B804F3FDF2F310FF8D061705D9095B089D00A4FF0200F807430883F6AB07F3
:2004800078FA98FFBAFD100A350D4F0DD516D8160C002EEA680D39F0E1EE46F61111FAFD25
:2004A000D1FC35FFCC07AC09FBF80A008EF694FFD7FC13061D081000F1FECB0BA5007E078F
:2004C000430C6E0FEB0D2920A403D2E9A0069FFFB9EE16E8221276021C0F95FF5C09700A7A
:2004E00058FFCF0185FC010ABB074F081203E0FDA900DC0470FF250812049B0F4B10D0111D
:200500001D0F89F1FCE1E401FBFF05026C1193FA250354F43D022C01B411FA07FDFE880C37
:20052000E80DD7053D04A40B650C7C0C67036208BC0CFF160F1C361394002401E6D283FEEA
:20054000EE0184FE71F1B3ECC4DD71DD11F51FF7F806F60412FDE20B3015F11238100A127E
:2005600027116A006E0D3016090E5FFFD709ACF97812CA105FEE7DFF1804DFFF90E23BFD4D
:20058000AED97BBD83F8E0EB6FDDC7EBE10B60046AF976003A12F418CC168614800B1B0CA9
:2005A0004CF14EE087D52ACDA0E0D6F2500D07FE73026AFFAFFB30F871E7D8CD80C7F3DF0D
:2005C0006BF297E286E13FED05F250E420DC1BD705DFC5EF82FAB8EAAED831CBFAD472F72A
:2005E000B8F1F703ABFD88028C0191FD0FFD00FC9901F9FF20FA09F4FFF3E5EFF0F19BF127
:20060000F0EA03FB46F50E0726FE10F527E5E0EBE9057CEEE1DED2E5C1FBDC01CFFAF70487
:20062000CA00510210FF4601C4FD3B0368FF2304A101CF00F70057045CFA42F925FEF7024A
:20064000F502AB000B03E6FD95012CFB6CFFA80153013BFE3EFDD4FDDAFD60027C014200A5
:20066000CDFC78FA12EE71EF12F31DF123F08E0BC2069CFE24E950F33E0008F7BBDCA2E414
:20068000EDE596E05DF8E3FE2AFEFCFFF2FED9018EFE42008802230A26068FF463F76ADF18
:2006A0000AD450E39FDFB5DCD7EDAFEDA9E257E117F904005404C6F9D2F577F52BF85F0116
:2006C000BEFED5070AFFC4FCEB00C102880E280F690F7A066CFB64FFB60BE6F3BFFAFAFD32
:2006E0006D12A2033C08B3087EFA42FD850274018D14E0FAA0EB97FB6703C211CEFE2C0354
:20070000E0FF050776103425D3F075FBDB02A9FDD304D009D80EDB11E608DC04D80410100D
:200720004406ED08C10E66054F03A609DB0315FC6113E415EDFF37E28D055CFFF0E6750C9A
:20074000D300EC0CC30A8F0A4606430AE8FC28F924F6A2039101FAFF560B0409AE05D9FE88
:2007600042FF1BFCB60B2C0430FFF50D22FEC7E47BFD78129B06D409B212781FD2194A061E
:2007800056FCFA0086FDFDF810FA7AF7C5FB8DF2A2F5F1F8D4001704CB0446021D0EBF0C5F
:2007A0002411E40A83115BE7B3FBD1248EFB26187B15921DA6089A0B0D09BDFE3300C90176
:2007C000A7FA98F102F42AF49AF696FF7502050151042AFCAB086C0F3318E2131B013DF106
:2007E000E312D612CBFAAF1007FFE704A7FEA405A202E001D00375040A08A1FC17F70C01BE
:20080000DC01D504ED0A4609A2119306F9124418741FB418980A151FEA07540E65F1BD008E
:20082000CB05000462FF0502520963025703E40101066C01E0079A03E40DAF0CC40D1707EA
:200840007E0B2310D315EF1282217A3BA90D650A3C08EDFF2703BF0D560A39FFDE061506B9
:20086000FC064403FD054306E505E10F220CD20A830AE309B907E804490B9C091505D400F4
:20088000D61B21361E1B38FADB02C5068B00B8032619E2FE3105F4008CFFB4FD6101B80D0B
:2008A00010086C0B4C04180866FCBC01C00037FC19FB11E6B3E851EAC900A11FD21ED2EC0F
:2008C00057FD100197F914FFE3075D08B106C7FEA6024F04F70FBF0ABD1022086F04DCFD38
:2008E00087F836FD240351FCADFFE7E6F4DCC6D5B3E403FA8021BBE1AFFDC0F1EF024F0779
:2009000041F41C0975FF8105370498060E07A30BBC06CEFADAF6FAEFC1F8F7FFBF0654FBE1
:200920005FFDEBF5BFDDFDED0AFCF7EDB5FEF0E20E0EB30C5C0B190B6807AAF6C1FAC10491
:2009400066039F07DD045EFD97FAD9F0D5FD81FB7BF99B02800172FB31FAC9FEB9FEBC1B25
:200960004D289EF53CE7FDEE160D460D220BF6015F0B5C02260978FD75F6F0F8D3F026F42B
:2009800083FD1CF5D6F7A6FDE0F390FA8303B1053800CA036A0D8E22EB297DEBA8FA49F634
:2009A00094087E1450FE8B164B093B0198F6E1F342EB06F07FEE69EAF0F7E0FB42FC24FF22
:2009C00077F8C3090309CF0E1C09810BC011CE0D47288BD595FE5D0963FDAE1678EF1C2700
:2009E000CB1510017F09B4F96FECD6E89BE76AF124F041F3F3EB0BF9D407120DFA05B407FD
:200A0000BD06FF01B1074A0E770F83DAA1148A142A0B0B18E4EF701FBE11C71164130805E8
:200A2000CD023FF9D2F4F0F68DF77BF54FFC1506DE0A4904F7FCE9000202B609770F4A0CF9
:200A4000090588E8EE0A27E891FE181B72FB0211C211B916E40CC305D80C8E056301750223
:200A6000210202065B09070ACBFFCA025E0127F79901DD02B102480E8B1C86F73BDCC1E75E
:200A800067FD0D0C9AE97F03A404EC084E08BAFEB60C8D0C16077407B006EE0767063304E8
:200AA0002200FD0483022DF2D20094F16906F40D90FC0ADFAEE977FFE3F0D203F0F896EE12
:200AC00082098EF61004BC01C802F8F6C9FDBE020008C10130023204F3FE27FE40FC19FD5E
:200AE000EFF921FCFE04B20983EBCFE03C006C0251F5E8FAED0160EE2AF9A4EDBAF940FC66
:200B00006CF88904DBF726045CFF3AFE8700E301D805EF044306E100F0FA02F2CBF97E00D0
:200B20003AE7E0D13C08ED001C0289FCBB1E300B3711EC05FF012D03E8FC2509630CA01061
:200B4000E700A4FDDD034A09F903CF004DFA1BF668F987E48ED96BE499FB2AE3B1FB3AFEB0
:200B6000C6FF6BFE7FFC851D1D056E04D0009601C9FD0C034D010302D300E10FDB15440B05
:200B80009CFE29043CF94DF75DF2E6F8D602E1F1D3050BDE21EDE40088FFC502BEF2070E78
:200BA0002D04A402F10A04017CFD02FDB807A702BD103C0B89F9C508000FE3099D191E1834
:200BC0002C00CD027A14D0150A1A14FAEEFF9DFF8D03D3FD56FCE2FB45E7D6E48BE663E9BA
:200BE0006DF48FF2B4F962005900930135F7EE0C2B07A8FD85FF6315400B0EFB7DF4E4FA7B
:200C0000EAEFA109CE0389021C00FCFDA20040FBAA08E813A0FAC5F788FC73F06EF64EF671
:200C2000D8ECCAFDD4E792EDC9E8FC02FFF7DFF4860E3CF7A5E72AFD2F02D800D1FFAFFF76
:200C40005B01EE0374FE5600D70133FEFCFC47FEA104EFFF7C009CFE63F4D9F095FAC4FC21
:200C6000A4FE4501FAFFA90420004FFFCB000AFD87FAE5012202DDFFB8FFE200270258FD28
:200C80006DFA65F9FDE7FEE3C8EC14FBF9FA52F5ECF188FB23FE81D734FF3BF89FE08BE79D
:200CA0006BDBF8E310E776F05401A0061DFDCC002CFE76FEC7FC2E1000F902F88AF4EFDCFA
:200CC000E4F6BD11E4F010F9410366F1750065EE73EC07ECFCEB76E9A6F2F711A60662ECFA
:200CE000A90D58115E0047FF63026802CFE843EC74E3C00E95E43AF843FC70018314B81E8F
:200D00000CFB42F4AE0921F9DDF88DF882ED86ED1AEA5CF536F80FE657EF5F04990C0BFEBA
:200D2000CA00E80099E876E4F5F76EFEB1F94C0B6501E60072FE27074903FA01D9FFEE02D4
:200D4000E6FF8C04E201D9FF050193F34C05B9FE4FFC4DF8F3F4000971FFC7FF44DF2AF3D9
:200D6000B7FF2FEDB3E4E3F57D02ABF73009DE065C05EEFDC2007502DB08F6061709580216
:200D80005B00A0F96CF4D9020DF882F917FEC714ABFE70F0CF165FF91C02F7F9A4FBA4FD20
:200DA000A00176001DFEF9FAFAF7D4FD22024A055D08280294048F039CFD070D4009E6F84C
:200DC000D7F332E56C0A760A3602A7E2471A6A112115980E640CD2FBB0FD26058AFA5F00CB
:200DE000C2FAC908D00646FF2807AC0BC0052F0400028F05B20BAF050C02C1F8360D4C060A
:200E00007719A4F26926800BD01077091E02B2FAF7035D076EFC98FC10F65EF83907060860
:200E20006A0A6C09720C8F049805400C240502006FFC3BFF17F439DFA3F3CAF4A71EA91109
:200E40003DF968179202BEF63DF253FE060424F617FEECFD4EFF810BE2128014A313C80A0A
:200E60002C12CA00F905340333EB4EE34FE4E00FB2F8A2F5F413FA2FFDF2DE0FF5099D03D9
:200E800019F6D4F8ADF08AF0AAF8C4EEA2F93003280D17162817E50B0105E803850FA3FB8A
:200EA000E5F1630513E70BFE31FAF81A5C08C11552EC95FDCE0508FA7F00A302A3FC02FD13
:200EC0000EFC85F80EF76FFCAC00930B260C810FB10FC40E0D0A56ED58DC96F727DD28F73F
:200EE00096FC2811BA0136FA45F076F4A701B0F864FED104A80BF80CF80EEF0A6BF547F1C8
:200F000019F952FB3607F30EB40AB4024B03CDE914EB86EFBCEB96086FEDC80B29FF6AF44E
:200F2000E8FF41FD42072406D60C8B0C290C9911A612B50E800074F7EEFB69FDFE08040200
:200F40007EFCE103960180F54402A8FC3001291711F3D1F34CEBE1EF3802DD0C4206421D33
:200F60005912CE0AA307AC0D27155D0C9FFBDAFC54FF9309FB08B90307061FFADA056DFE98
:200F8000F302CC0F941E8B1292F163FDB1FB9705AA0A6308D001470E8A0BAD073F07DC094E
:200FA0004D10E502CDF8F307B5060311E300FD04CEFDF50177098708450CFE00E23692159D
:200FC000850D4AEE56F5D8002D0E3103C4036F09860551FF5A0949164D10E6FDD0FEA7061E
:200FE0006B0B7D16430A1606910CC3097C053309B506A708B52C001939FF62ED4923E2E937
:201000004C0B6C087600FBFFED043109AB0E050C7407B50042F70B0AB90AF4094B03D5FD42
:201020000803F009220B6CFFD3F68D06231D8C1693E77F08221407F05A036C035D01190461
:201040003809BA0BF706D407C80769007DF9F203B40D88004900D8FBB6F80F07EDFBC0FC42
:2010600032FBF502EB19C81E60EB2AF3BA02CB087A1057097DFE5A09FA0028FB80FDAE005B
:20108000FB0023FC3E0448FEFE00DAFE550107FC09F8EB0743F880F1E0ECDAFB5F1FB317F7
:2010A0008BFD6F13B813E10E4611CC0DC8FFA000ABFBC2FBDCFC610186FB1500E4FBAFFC18
:2010C00052FE56FEBDF99E0088013E0AA0F2BBF282FF43F37E1870F5E9F21503F6156606EC
:2010E00015FE8501EFF741F654FF6F01ACFFE4016A063EFB6EF560F72DFF49F6C3F9420219
:2011000068FE7DFE6305E20914FFF7F5B52690FF19F0B2F2BE19D406C0F9A5FADF0C14027B
:20112000CB0A19FDF60ACE0CC306D404C5FD64FA40FFECFDA7FD4FFDC4F46406E4124E0D9E
:20114000E30BADFA99F23B00DA00E8FF97F4F0F633F09102AA0C3414C00FAD0A2A0E6C1113
:2011600028052E02CA060CFF9901DD0873068C0372F7081893171F12C30E981084EC0AFF5A
:2011800076FF5B053008960F2510E1106800DF0879010F04D3F9BBF71505A7F6DEFD44FF48
:2011A0006B07CF06E2098EF8CF07991E5124D41BAD104F2F44054F015BFBEFFF0503FE1454
:2011C000E91435071BEE5E01B9FCA5FA23FF1DFEDFEE5DFF9BFFB2F907FF60F7A9F7C5E6C7
:2011E000BEFEEAFF66F66AEC55D85C13C50DDEFE1CFBC2FFB3FD70FF970CB708A708A1F8AD
:201200001DFC19FB24FB1FF3BCFF51F387F59EF6A6F642F147EDADEEFDE492EA6DD60FEA2A
:20122000CFED3903DEFE76FE1E01BEFF51FF9AFB7F03D700D3F821F9F1F705094FE600EC50
:2012400049F703F8A3E19600010979F0A7037D0E6507CBEDB2F2DAEC5A02C2FEC8FE29FEFA
:201260009E011E000B024F014300B102F5FF4EFD82032AFD17FF7801D5F063EF330753013F
:20128000B80029001A0243FD060495FD55FCA5FEBBFF67FA7CFD54FE49FE010026FF2C0101
:2012A0007CFFA200BAEB17E8F1E6DEE931EFEBEBEBED83F1F602F7FCFB077DFE18F012F318
:2012C00033F1A1F770F968FEBF00350101015502B3FE11FFB8FDC0FD11026200F1ED0BDBC9
:2012E00019E89F097B031CFBFEDD6DDB7EDC55E79FF9A80218103F099C0E200395F6A8FC49
:20130000030D640C40FD4A031101ACFDE00193FF240A2D0FD606D4F8A0FAB3FE00073406F7
:20132000E5FBE8F279FB6900E4F852FA76F915F46CEC9AFD7AF9970841133FFB83001CFD4B
:20134000E9FF980670108E0CE8FBF8F82F089E06A9FA81FE3AFF1DFEE0FFC8F6BA0389FDE9
:20136000A7FB14FE3E0B8D0583015A06C20C080BCE1DDC222814C40217FD75FED3F2D8EC1E
:20138000D3F8C1F565FD21067E07690D07005409030B0A0ADBFB4DFF4605670A8F064A0302
:2013A00039127408720C8B0EAA00120B551807FE9CFEC312210792EB78F057F95A040800E4
:2013C0006B10A0127D0B50072E0DDC10A00C891137119211FC020704290635FDFCF87407D0
:2013E000C20298FECEFB590128FF6D1F2A149203F8024BF5C20B7AF8DC0E0204FA095F051A
:20140000FF09C20B720E7E123310E5042CFDAAF2BAFC72F2EFF46AEB44F4E503F5EA96030C
:201420005BFF68F3B90A820C920DB406670051FC89078A077E09DB0922068D1108108505A5
:201440008E00B9F9D703D20093F284FCCFFFC0F504EF22079EFFB61797FE74F975FB5B07BE
:201460002F09E7016D0A9306800A3D0FF50271FDDE00C6FACBF9D4F62BF12A0208019001F3
:201480006FFEDEFB140541030BDEDFF184FA94F521FC69F3C4EF34192209F003B00B0D0E7C
:2014A000BB0B52FCC7F1E3E754E758DA65E4BAE477F786F780037003C403F0FCD40BB40A11
:2014C00069E80EFA210D67F9C4FE3FF0AFF4AF03980A0009B0093EFD2EF84DF47EE310E286
:2014E00076E0CDEA4EFECC030D07540738FF7D069B03A3FE4A0BAD0398FD700E240F83ECA2
:20150000D4007EEB26FFE9006BF8C6FAE9F7EBF165E804EF78F5E7FC1FFDC60B9E136D08FE
:2015200061028C053C01BF009402A2F77AFABFF338FEE0F20A0264E967F025EF31F12AFE50
:201540007DEFD6EE09E9F8F696F5E1FD1205C511250AE814FC0ADBFE6AF88CFEAAFFDEF9AF
:20156000B60967013FFFAEED3F00AEFED61A03FE85ED3A14C8E6E3041FF621EA06FFD2053E
:201580007A08EB09C111410E460BA511ED09E6FEBC00F0021CFE44F14E01A3FCEDFE53ECBE
:2015A000A8FCCD0B6D07A508DFED6510BDE6AF060DFF5AFA6D048D0688075709760C160901
:2015C0009805F209E803280AF2FF190120FF440089056A02110008F5B9FF61FFB6FF820D84
:2015E00044FBAF17B609A60C6A08F3F4BFFD41FD75F49DFFEAFB8AF7E708320C76058F0878
:20160000510483087608F802FB079E05A60286F17BF7A90EA412BF06A4FD391BF4FD010320
:20162000B103EBFB98FAF9EEF2F823F47CF0E2F04D012F0834011B0FE7022F0A670BE8FEFA
:201640009007AA1072FEAAED7A01A3023F0083F73D10151FD7016403350B480D7A02EAEDB1
:20166000A4ECD8EB50F52DF5ACE7CCF8FFFF1C08E5054E054006D60A2604D40D63FB26F84D
:20168000170C6DFD5F116C125EE90CFDD30CE8FA2D09C909CFF7D8EF67F432F273F3DBEE7B
:2016A00032E47FEECEF041F335FC650863094B023407B50BE2FFAD00DB01D2053A1278104E
:2016C00056FE65FD82113111520F5B0B390311FE7CF436F8DAF5F0F982F6CFFA69F628FB54
:2016E00035FE26FEB501A204E407890CF70BBD004CF68BF69BFBD4EE79EC1B043116720C94
:20170000A80E570A3D0D3F0BD803B2FD2D056503B1073B008FFCA8F9C7FFE3F7EAFB18033B
:201720005907791159FA9FFB46F495EAA9F33D00FEF0EFF400015D042C09AAF7E000A106B0
:201740000107C8F78A04850C9C02C9F75DFC21F8AEFBDCFAF6F36EF96305CDFA0F03D1FAF8
:20176000CAFE6AF40AF3C60362FC4DFF350569131616B4087C05360FD20EF6027A03BE0755
:20178000B3FB2B051900EE0095F502F00DFAB9FBEBFD2FF4510B0E1A49043AFCD3EE2E022A
:2017A0004B01D8FF9EF5BD0C14173007D208CB084A05C508AC08700C9CFE12078FFE9AFA7B
:2017C0009FF991F6F8F9E4FF8B0CEF0C4810F9129B00B2E9F3E642002C034AFC2D1B57EECE
:2017E000F90AB21E6D0E161594179615491AB70BC804B20770089E06BCFC72F3C2FDC0FFB9
:201800008EFB34EDD5E7F1F98FFA9DED61F0990090FE1CFFA100DD0DF407A70D61151621EB
:201820003216401CE91FAC201D0F7618B71E3A04F7059310380FEEF754101808FB10D8151C
:2018400014153600F2FF17FE9802D4FE4B0295FF54FFEBFBA1044F062D06970DE417D311ED
:20186000AC090A0CFD2A4500DCED1BE56CF0AE027E09D4043200EAF986FF610078FEA4FDEB
:2018800005FB78FC0CFF28FF8400A8000C01C1FD6F0115000CFF00FD2F0138033801EBFC93
:2018A00011028A02B7040303A60045FF150156FC340167FF3A00E2026B0093FD56FF9BFED4
:2018C00036066C001C03C404350168FFF7FFA40414FE5505D2066A059C00BBFC2801A20568
:2018E00099027F01460284FFCBFCAB0018FED4FE78019AFCDDFD1600C2009400C205FE038B
:20190000BFF067E8E8F12A02B6F54F0BE7FA98EDCBF63309F4FCA5FC00F65CF06BEC3AF008
:201920000FFD20FF1F034CFC2B0196FF2F00D4FB48FF1CF6EEF3ECE860EEB3F4BFFBB2EFF5
:20194000860C5520FC177B0A2C1158045106AE19A8F65FEB49F0F0F7D71CF7056AF933FFA5
:201960003702CAFF1EEEAD0637077B0104FDE3F9C705680754FD83067C009EFDAFF4240418
:20198000170237FF70FB37FEE2FF9C0E1B12CD04ECEB25010E1689FFD1010501B1F47C101D
:2019A0004C034EFD23F4C303640D6103D30F81050B02C90714040DF4BAFFC1FC2A03DD02FB
:2019C000B8FDCE07F509DD0C26F729F606EC65E93FFC1B05B60B2A0E0B07D7FC9EFE8A0AB1
:2019E000EAFFB202FC1005035A09E00B7D0A6FFF5CFA2804E607990207040406980E0B061D
:201A000011FE59FF72FCF5F89300C2FFCEF08DE85BFA2A0CFA052110C905D00EB40B6D0DDD
:201A20000611921087158706FA10BF0B6711CB14580CBE0A42FE0C033B00E1FF0B0782F47B
:201A4000C5FB13F66FF639E41EFB70FAC0FAE104E501010404056A09FF195D12EF125E0BC1
:201A6000A9103707F702920238071901A4056C0A35021AEC550A26EF71FC36F3B50461F019
:201A8000D109B9FC8AF5C4FD5BFA6F010CFD75FD2F081512E50660FC71F87AF824FD5DFF3A
:201AA000AAF7D5010B0599063209551035F4C8185EFB45EDD708AAFD92FF5E0273FBE2F312
:201AC00014FCF40198FF2E00E30575054DF11EE77AEEE4F125F6BDEE2DF9A4FEEEFC39FBAE
:201AE0006E0EC9088023511695EE5A0911EDF1F437080AEDF1F559F4D9FDCCFC3B01D208A9
:201B0000EF0382F349E2AEE629EAB2FB40023AF6DFF0E3EF60F4F401291033043D1EDE0ECC
:201B20000BF3AB10DE01AEF92808E4F92D0347FB200B72037B0889063CF872EC94ED8AF5A3
:201B400005F4D8F895FC63ED2CF809F8DEED90FCB3FF05F7C810BF12580124F97BF83615D4
:201B600069006EF3980713008BFB84FF4BFB54F88EE91AF2AA02F6F52DED5AF59DF576F0D3
:201B8000EFEC22FFA3E961F91E09CCF0B2F04E06D61196F009FAA2072B0070F30AF7BE051F
:201BA000490137FC35FAADF18DF26EF4BBFB4DFE0DEF07F5C9F219EFBB00100629F65DFDF4
:201BC000A70695EC68F95802BF1122F61B01250240F9C807E8FB47012F0575FC3EFFB1FA31
:201BE000ADFD4BEE47ED5CF4B8FCFCF77AF7C8EDAF04E4097DF5E701BFFCB8EF5509880768
:201C000078FEC7F7BFEE4A0027F6D60579F84AFCA707E0019E0276FA9BF92DF921F3F9F78D
:201C2000C2EF91EB01F26EFF75FD9806CEFD54F6A7FC1DEA64EC2208290102F96AE51A0838
:201C4000550338FD3EFA5DFE05FC4CFC1E021EFCC0FEB3FF15FE67F36EE719F2A2F96601A2
:201C6000DC00C7FE3000370208F42EFD20E076F025003EEF38E323F5620693F5BCFA4AFE5A
:201C80001AF7A4F96AF8D4EEC0F309F0A0EB13E678ED75F632F95D03B40744FF6800E7FB9F
:201CA000A3F0A2F71EE753E5E7028BEFB314A1EC6D021EF3B7FD0DFF06F9BAEEF2EE27F71F
:201CC0007EF766EA73EABCF678FD94FF87F85E01C20D130781017EFCBFF8BCF305EE87EE97
:201CE000A0034FFB100936FD40FD2AFC3BF9ECF843F8E4FD6BF9D7FE8103D1026B08A70E5C
:201D00008909BD033400420321071905FF04270193F9E009F9118004FF01BFF5F809D2F904
:201D2000E103ACF384F476F7CC02BFFFBB02AC10290E9E136F19A117A10B8A01CC0B2409D3
:201D4000AA034105EC051B15891DCE041E0DFFFD3400C0F7FD0D45FE29F85504280721FBD3
:201D6000340D370CBE056B11A00EB01299124311EF0CE00BFD0E36057009F8036F0C1013F3
:201D8000C3FB1CF5C820C7029BFCDAFEDCFB80FA3104350D8D0B260B2D086210C50EA71191
:201DA000A008500CA10D4F0D780C410EFC06DD03AF0840FD8E0ECD00E3FBAFF73A1EE9043A
:201DC0004001B2FEBBED8D04B3190A18420C59169A15EA16F50AA9060D11B60DA20CA90A8F
:201DE0006405EC1AF51D46008804B1060C108CF7B916F40605FBD90063FEC3FBF6EEB113D1
:201E00002F1ABFFB0F06EC1386224718D50D60115A16640E2D02E514A312E60DDF13602429
:201E2000F61427157C1EA317BF187A0154FE39045D027201850182FE451BC0F0CBF85B021F
:201E400049FF51F7EB0B8408790DD50AB50D2124861D23ED9802F7176B093F072C1ED5FED2
:201E60002CFFD702ADFFDF01C00107058202D3FDF5FDA401B8FDE5023C03DE0DA8182C1F49
:201E8000D031E22B621CAE20E21EFC05C4EE35F46EFE5BF6E1F40CFB0801DAFF2CFFE0FE88
:201EA00055010C02790496FCF1FE7CFE320120049A01CD00EA0028FD1903B205CF02BE0313
:201EC000CF00D101A80243019602DBFED4FD1A01BA004205A3FF64FF95FF65007C02D300C6
:201EE0005500B2FF4FF143F062F460FA4FEDC306A4055AFE1F13DB152118AD11ADEE4FF4BC
:201F00009DF6D8FD63F78DF5F3FF4803FDFF440256FE11021E031D0B6806DAFF4AFBF7EAE1
:201F20006FEB32066F117206D6F02DFB67F468F25FF2F9DCB9DBA5F89CFC9AFC5DF5DAFCC7
:201F400062012400B6005EFB6FFEA7FDA51B001251FFF2FE19F56B07EA00FBFDD3015AFE3A
:201F60004DFE37F35BE540EED6F335EDDFE371F2DDEABFE5A0EF5BF61BFD0FFED100F1003C
:201F800022053A0154174618E90655017804ACF5E70626F79CFFACFE0103ECFE6DEEC0EE6E
:201FA000C8EC99EBF9EC7DE71ED853F8D8E448FBC304250967F93DFC72FFA5004F176D06E3
:201FC000E70C8D0CCF068706D5054A0060F95D049F098A0460FF4FFFB4F5B1E8F6F1EDE854
:201FE00032DAB9EC56EA69F676012A0950EDD9F875FEB90656FD6B10570653FBDB10E2045D
:2020000017050B004A0509088706F703DA041FF964FE50FA9CFA9BE69CEDC809CAECB3F93D
:202020003BE9A4E5D0F6D7F7FE09ED19DA0E8B1D3B1100FB450C54073DFD3D069B033C0276
:20204000EB0B400BBE064909520412FF92F50EEF73F296F33AE9EDECE6D33DDC18E710F281
:202060006500E51F7F048407090BB503E7065F0C800062077E1268FF4607360BD40EEA107B
:20208000ED0676021DFFE6F176F40BF021F3EFE8D8D787DB13E432EF58051B1F0307BA0A04
:2020A0007D154B0F4405A500D4FEE0034E088302800E1214891D4D1AB70AA80910FF18F666
:2020C000D6EEC8F293F7A2DCDEE5E7DC39E36FFF2C0AA81ACB162B09DC0C02021600E1FD7D
:2020E00084FDADFF96075806D6039F18D221CF11A70B2D0105FB3CFA65F4A9F5A908F2F3B2
:20210000C6D330ECF9EF490DB70E8813B11E96070312F1030F0210096C00A7FFA9FF8C087F
:202120005107F0130419F403BCF4CCFB58FBF8FE0EFDA8F9CF0212FCB6D596EF36F0091294
:20214000C00B1811221566F7E90AAF0854FC96009A03DC00E7FB22FCF7FAC4FCBE09D7FBA4
:2021600088F8DEFCBDFDF4F608F7FAF7D20770FEDDF7E900BBFB5C13D707A408B81BB7F83C
:20218000DDFADCF6410264FFAC00F3FBE8F6C8F9FEF2FEFA000AE2FA6FFA06015900D2F15D
:2021A000ECFD660157FCBEFCB30A540AADFE08F053ED50063C23E3F66BE7B8F369FB28F8B5
:2021C00054FE6C00AB02DAFAA8F9D9FCA305B40077F6FA00A4027702CF0174FEBAFA66000C
:2021E000B7028E07A81C310FE8F1FE02DA0D9AF653F4BDFE93FD7BFC10FB4FFEEE0061FA93
:202200004BF53BFD3105B505580029059E01F8FD1F08D5F8720076F759FB47FD500E0B1157
:202220007B143403CA1045F61E038CF61C03B00FA2049F04F5024CF98AF413FA670242FB8C
:20224000C804D400940111035F01EFFE53F843FBAB0BB3FF421AC9137D022F088602C801B8
:20226000EF0179F402FD1E05C0F263F540FEDDF210F7B401220AB9068C0478036B07BE03E3
:20228000CA03E604E90EBA012207381D051EA30EE118D1112F13EEFE0A0BBCF60EFAD0F9E2
:2022A00037FA81F55E0067F6D8F91805C600CF0449009D02C9033C037306050BD9082AF7B7
:2022C0003F00BF25A62DF2FEFB073718CC10EAF6A613B7FCA5F833F719F10BFEBFFC1DF4F9
:2022E000BEFF33072604D902F5018D056DFE180A52041701610314FB8C005A18050F54FE88
:20230000B8FC5E1597085BF24CFA0CF4B9FFE901C5F515FCDBF70CF8D901B4064C069E0499
:20232000600143FBDDF7E0FC4C01400292FED3FBA20F0AFC04137D007D0973FEC40C7FFCD4
:20234000A9F04DFCD3FEDBF315F3BBF350FE66F99C046D02FA039BFEB60035FAFEFFF90415
:202360007BFB9BFEACF05AF5EB00160BE211B1FE7B092206EA0EAEFBC8FD6F055501EFFAF0
:202380000CFEE9FF70FF76FBBD016AFAF502D1041CFF0BFDD4F727FB82033DFB85FB9AF99D
:2023A000E1FEC907FCED83FF40004BFFF8F2C1EC50F52FF6ABF4BD0392FD590674FE310583
:2023C000D303D9054200040434FECD04E3FBEFF471F18CF750FA8BF337F00C02EEF6350040
:2023E000CDFF65FB0D15AA0DAF0FBC148007FB01930094FC66FC5DFB57FCA5004B03FC04A4
:2024000062F93F0A0703AB07CBF8E1FEB5E665F377FF4415C9130C030101C5FE0BEBF7F467
:20242000E6F885F99F02840BDA12FF00C4F49B06AE0CB9FDE405D0FD060063FCC3FC6DFA1B
:20244000D5ED88F17FE684E211E526F1BD05F803D30049FCD40239FCB9EB0EE9E1F7540EB4
:2024600034197C12FF128205E4FC180D3011F70A46050704DC041A0DC5FC1A0D971C301D5D
:202480009902CC063DFFC2F859024BFEBF00E8FB60075A094418EB091D1690048E194103C7
:2024A0001BFC4E1B5420570B8200071F850832125D0E6422EA1EB61B57019AFDB3FD8DFF58
:2024C000FE025CFDF7009F029D02CAFB14FF13045906C1010EFE34FF0CFEF6FCC5FE50FE10
:2024E000F4FCEDFE92FFBCFBF3FE6101C7FE1100F5FF8202E100860043FEA40176007202E1
:20250000BA00ECFD1EFFBBF927F39CF44BF79FFE8BFFD1F85718571DD8E542E157F4A002BB
:202520006BF9DB018C05A8F9130020000801BEFE1A0672FE3001A000DC0069FDF3FA8DF321
:2025400086F234F40FEBB4EBD6DC80DB75EE23FA88FBEFE944D6ACF84BE172ECB6E602E58F
:20256000B4EF3606BF0580012C04A601D5081403A7FC1BF4A0F20E0317E71BEA61E7CEE11D
:202580007DE81AE3D5E1BAEDC7ED44EEC9F044FADBE598E4DBF835DFE9E1DBFBDEEDDEFF34
:2025A0007B0189010609490102F519F8F709C904A1E5D9D0A5DA41FADFFE9C131E0A68FCE6
:2025C00020FE13FA41FAB4FFB9F9C5F5C3F12D032AE67EE581DBFBE02E0012FEF3143D174F
:2025E0006F188D0A23026F13A2DCABE144E1D3E4BDF198F6BDFDBBFD50007CF6B6FC47FCCB
:20260000C702DDFD5202DD006BEDA0D119E905F5A8FEB7EFD1FC0E14D62189E652F7890BA3
:2026200065FA00ED8BE72EEC2CF319F3E0FEFDFAA7FC300319082E020B0938FDF3FF080E4A
:2026400025F6CCDAA60925F966FE05E27D010D196212B3F6E1EB1E0B64FE8CF138F2AFF83B
:20266000B4041E048207D4FAA0FA81022D007A0117FD40F91006360EC2EA97E84D13FFF043
:20268000B31100DBA504D113430C2008ACEAD4F7A8FB77F081ECAEF30BFBCB05080221001D
:2026A000C0F9330BFD09410B270353060B0511042A060201E1081DFB36FFA6011DF4C80739
:2026C0001C1116090AE3EB0474F1DDF982FE76E742F20005980A890AE80B660B9F0E6C0EC1
:2026E00054046C04CC05E3FBFB079EF3AF0719F51802DF11A9063A0CE6100B0663E5420478
:2027000064F630F35DF600F219EE21FE7D145810B60873FDB208221074FFE712D20D7C10E7
:20272000A516BB12280715F3B30303125F1A2BFBA1160C0D5EF368FB3AF88DF3B0ECBBF8EB
:20274000BAEC0E018E055C05B10090F9BF076D0466FEE019CF0BAC16291CA50F5BFBD9FD41
:2027600074008D02070ACA1D1D2138E820DA1E0390E406E82DEF4DFA5CFE6C0552112005CD
:2027800023FCE3FD0FF7D7F76FF8DEF9F6F6790194104714621B79F7C210BDFEF3E5441518
:2027A000CF0A1EC75BDEF10820FA22EF6CF53B02E7020207F10FDBFF4E024D0035F375F367
:2027C000D6D7C4E035D191C793E8500CC010BC028800640A4B1833185BF5C6F16AE475FC7B
:2027E000F3F802EED1FA7106B109DA07BC0B5102DB045EF9920192F376E663F89EEB59EC34
:2028000011FB9C04370051FD6A01E301540F60F6F8F17FF553081CFE8DFD42FD75059407CF
:20282000B908CE0F2B0ADCFD9C042BFE69079BEC9FE275F962EBF1D9EBE13BE6BC0368FD15
:20284000000134030DFCE9F41403DC0D23088EFF26F57BFE2FFCE3FEBB06BF0D4C0781039E
:20286000B10418002F03B5F107EC6FECFCD483E5B40279EFAFF8E2FD01FF8314BCEA35E82F
:20288000EB0C3B077C07E600BDFEE9046405DF0411084709930508FD9FF8D4FA2A0540F6D2
:2028A000A8F096F8C1FD85FCA9012006D0142BEB3CF7C91669F1BFD8D10489FE82F639FBDE
:2028C00020FE0D097807AE11340A570EF406DEFC13F881071CFFEFF541C52EDCD6ECBCFDF2
:2028E0005000D808CB1FCC0D0218251B780F95E328F6AAFB65F886073402EA065E005609FC
:20290000B50FA90DC8FDB4F758FBBEFFD6FEA6EA53BD9CD8D6FD8908260E360EDA095616AA
:2029200049FE710DBC051CE06EF57604580EAD072C035AFA2C041005D40C81FE260234F9A2
:20294000610197F8F5EF22E897C904CDA8FBD808450D2007FF0E6A0D98133A0637096FEA63
:20296000F2EF98FF270B0F0000F77501D8010306FE04B2FE910187F6DFE701F2C5EC71DED5
:20298000AEDD68D09EFCD20DA51329FD91FA64FE4A0F820EF60CB1F25AE8F008EE0FA407C0
:2029A000E600390971045AFD9DFE9DFFE4FEAFF16FF8BEF91DF527E940DC05CAA4F1610643
:2029C000100CEAFDD519D800D800CD001BE566D274F55A0A85041605900B9A0BB2FF4A0A9B
:2029E0003A08BE003DFC550842FD13FBB6E37FD82AF032F2E7084D066612210D1D1D8D0215
:202A00006BFEF0FE7EEBCCEB4CEA8B0531F20AFF75FB0103C8F957F849FBDFFAB8F8B40048
:202A20007DE31EF389EA14FFA70E4E123311DEF7F202B210D2135D00A901BEFFF9FB46FADE
:202A400000FA52FB79E91EF075FEE6FE22EB71F42CFC75ED82DDF7DF0BFDA00301F411EC9A
:202A600005018302890A3EEC5AE86F0150FFBC0142FF71015500BD0893FFB102E6F705005C
:202A80006CF42503C7EF8BEC50F635F3A3F62EFDA20199121610AB0A7DFFE5FA98E34BDF26
:202AA0009D02E4ED81FF3A032B0430025E02EE00DFF918FCADF8D9E571012D0B450D0C0DD6
:202AC00067081F0740FED0FB53020C0E0108E30915FD4FFF1D039F038DFD1AFD5FFE44FF91
:202AE000E801ECFC7CF91C0259FEE4FF6E017D0010055D030D03520254026EFB08F1CCF8F7
:202B0000AFFFF0FFE7FB76004300D6025400A0010E010F00EA0078FF21016F023303200246
:202B20001505C1FFC5FAF5FDF400D607C81BF1F5BBF8B004930323E20AE547EEDA257E11BC
:202B40006B127E051110BA132801B800ECFCB70077059801C308CAE748EBFA0EDCFE42FE21
:202B6000F00DA111781064233627CC35A137152D921B4411EB065E21F817AE0A790F1E033D
:202B8000C3001CFB7EFC3B01E202E9FEEB1307E766F0D8039A1C5618E104EC0E8504A70387
:202BA000AEFCA3FD4A022107F80596FE40FDB411BBF4C80AD414930CE3000DF2550D09FC73
:202BC000ADFD30FA530AF9E0841BB323E21A3D14F50F6909690C81FB080BB60F090737F7AC
:202BE000E104010A3900B3115B153B0F090F2D1381FA85F804F93412E3FF37028714FD05E3
:202C00004F13750B6F0CBB08C60FF309BEFF3BF52EFE79F3FE0371FFE80422082C0B720707
:202C2000740ACA0FE418AB27BF190903ACFE0D1C1504231233EC98F74E0BFE11F7006002FB
:202C40007FFF33FE5BF6F1F453F917F15CEE4FF94FF5E9F342F207F6EBF044F76BFC761550
:202C6000531EB00E67081915E000C4FD5BEF3DEB5C0FF5118BFB0705B2005DFA5AFA74FAA7
:202C800088F479F54CF58DF269F528F762F6DAFAF5F48AF69FFD0902A70ACE00881DB512E6
:202CA0000F0E29F29B0CBF001C0F1B0972F5000740F9B102B503F8FC8EFA18FF37F317F34E
:202CC0004DECB2F9B5F563F860FEF4FC9DF778FED8F9F00C53074FEE370890F11A0FC7F7A8
:202CE00007FFD70513F246FD21FF59FBB9F29AF859F6A9F2EEF2F3F315FB75F601FDC1020D
:202D00004EFF470A3DFE58FA57FBF9F601F95BDFC3082A0E5EF733F24304F5FDD7F22EFF67
:202D2000D3FFDCF9FDEFA1F143F8BBF7C9F1B5FF04FA0D00D3F803FF6FFA41FEBEF9DDED12
:202D4000BF00C2EA06D904E91E05ECF191F6CEFCD9FE690918FB96FCD0F801FFF10138FB10
:202D6000A70914FF06FA67FDCFFFEAF38BF1F10339ECBFEE26EF0EF40BF229E57DD533EBAD
:202D80003EFC9105BDF585FFB0EAE9FC59FAE701E4007101C008AB091617E20C37F8E6FF72
:202DA000240405F660FA45F656F946FECFF1DEEA7D0933F8D3D632E4210F2C0B51FDF0002B
:202DC0006BE1BBF9D90053FDE501810E150B2B0EF80D8C04CDFAAC09A7001F0587FD8FFC11
:202DE000CCF8CA0692F4C5FFF70145F8B7F5EBF3590C43ED89EEB9047FF233081803130093
:202E00009D099A11D3073309E30BEBFF5F0C33035D04F4009B00560404FE9DFC3CFE7DFC3A
:202E2000AE000C13BDF78DFE190BC0F34224A419A2FB4E0356046409F20CC109DFFF6603C8
:202E40008305330CAF18880A1D0A230228FADAFD41F5D4004A04D4FFFB009F1DE6060A2114
:202E6000A90DCEF12B0311221CF83E05710CE90AA2FF8E05C6FBB0FACF021F0CB617F0114C
:202E8000410C0CFFDB04360465007308F4FDFD096B154832E6FD310C2C022BE9F71AF0018C
:202EA0000FFE0009E2030002C10213FE02F4B0F9F9FC820DAB17EA0E230A1702370BAB052C
:202EC000CF0717083D0AC90E6D0AED31CE05AEEEB3E3ECF30C0C000312067A049DFB07090D
:202EE00068FDEAFB7EEB19E8AF0D22189B112F0B970C640A960AA707DF0ACA0DCCFEF40F56
:202F00000E19DF1554092C1DEE0F1AE87EF9FE06810B910722FDA602C9F6A70172FAEF02C7
:202F20006AF8DA0AFF17E614040F770E2A07F9FEC70A611482063F016CFE13F9331C4F1346
:202F40003500B5EEE708FD07DAF851EA46F8CB039602B6072F075A06CF079100290EC31130
:202F600037100310CE11CB01E21331138B00AE01FCF755F33227EB05EC138700990C5714BF
:202F800083F054FCE8F0D4FF72080808AF04CF0632065807E008ED0A51080519D4106F0A67
:202FA000450B18035406E00693F861FF1215E00070167412CD179812E0115B0F8EFB9A015B
:202FC0000EFB05FEFB0250FFC8FFD902A9FA2709B2019904F706D4145F063D1596F554F861
:202FE000BDF45FE8BAF971FE63FC9BF91C1A52094F1343070B08B009B103BA06E6FB620004
:20300000E60198FDBDFEFB027703B7FC3603570BC50A55028DF6EDFB7BE7AFEF59064DFE79
:20302000B2000C01B60113E80CF312F31BF5F2F4BDFE0D09EBFE6602F5FA76F8400361FA08
:20304000F0FC88F988FA38007AFD0C0362FA3CF5B003D3249518D202D301B8FF37F08804CD
:20306000BCF5E3E0B6ED39E40DE611FA9AFBA6F585F3F5F48EF33EF783EEFAF5E4EF27F687
:20308000D5F136EE1F029709E6022FF8FC0E7AFF0F02070392FEC2FDD8F0D5E6ACDA11DA95
:2030A00040EC78DBFFE1A4E260E62FCBEDBBE4D4E7DB2ADEFFDB9DDD12D781E90BDF68F3D5
:2030C00044EA31043100410026FEDBFDC0FCAC0061FF3B038AF86EF4B7F05EE00CDB5EE12A
:2030E000D5DAEED9E1C80AD7B3E4DDF482E7BCDC9C00C40B740DEDFD48FFF9FD38FD3CFEE5
:20310000D700DEFFF002D90491FC7BFE4B013D054500F001F9FFB90124101E0FEDFE7E00E6
:2031200024FE0A02FEFE300263014D022DFF38FE9EFCE5012500BA00DFFC450379FE17020C
:203140007A0227FF6A061D0B230F0319441AF6189E20BB245D1150237214A01B181B571121
:203160005F191E139D10820DD5FEEA0206033800DA009E015705BD0CEA0F9B0228083C1CAE
:203180003106FEEF870169FFD7FF47F8CE06CE108F1E7022281E1B204815541CC82DEE1FC5
:2031A000BDEE40EF31FF4701EF006C0173F5E512D20DDA067C09CCF938FAC6047F085FF720
:2031C0000C032E0586F5D906AA013A050D082FFCB105E618681D3B1D700DD1086B1348017B
:2031E000F90056FE4AE8BF01E6FDA3FC7DF543F566F79504E10CB713A50B4D00AD069D0961
:2032000067109B05340147FB3DFC11FF34FBD60A3A0EC11A8812E509AA006E0105012E07C9
:2032200087F056F285FA4801CFF601FBF303420E6A08420521FD04FEB90089FDD0FB3701E5
:203240002810FF076F0BD703280AA00E3730F01730FE0CF0E7035BF52CF3DCFE25FB4001D0
:203260001E05B703380574082409A1049100590359FFBA0466FE0E035802AEFCDA078F0FEB
:20328000961F772C4F1CBB12D6F1D7E7D0EFA5E4D8F0A5046DF8FDFB240EF8022E073D0560
:2032A00030071901C304CEFF500405FB95FEFEFBE5FC7C0B460E770794075011440EF91FA9
:2032C00028061FDF60027CFBE100EAFF340429019F045EFF80021F05A5FC35058CFD8CFA2D
:2032E000F80565046CF81E05D7FEC2006106C7045F08030BC810322A5EFE4CF3CE01A5FB65
:2033000027FC77FD48063507960B0BFFB107EC0BED012FFD69FCF9FE5BFBE4F67AF280F2AE
:2033200045F3A000000546010F0CF5140719D0E832FAFB0216F89FF641FDB4FEDDFD44048F
:20334000B7019201DC09EA094E0981002406BCFDC1EF97F2F7F628F8C9FA01FAFFF85B0534
:203360005C09160B531D68EA5FF3C8F1C0F21AE5EDFB1507BD00E2FCBB01DF03D3043904F8
:20338000DF05460EC50AC900A5FDC6F189FFC9FB09F6AB0140F535FBDE155A18EA3865F5C7
:2033A000AFFB30EFBCED1D0080ED5DFD0701E104A2035B11A6075109030F1416B70E1E0192
:2033C0006CF5F8F7FDF56AF825FBD0FFFBF224FFED0BAC10E31F32E904106CFF42E4F6F2EC
:2033E000A1E8F9009DF6A60C8E0AC10A550542073815E61150090D02F9FA0BF61EF4AFFFA0
:203400000201D5F546F9C8F351045EFD84134D03980F29FEC1EDD5EF8BEE6BF1A1057BFC1C
:20342000D301E906D305AD07730A150E8C0E4BFD90FD24F669F583F2C8F9F2F39BF7C0EE5B
:20344000B00098025CF507EBCC0C1907DA0476F4A2EE5BEDEAF926F36101550A3207B10719
:20346000A0167A10D31137FB7808A0F822F812F7D2EC06F6D5F20AFC81095A19DEE5D3F0B1
:2034800006EA94098E0D5F088FE7F7E404E013E3EEEFF7F86A070D10BA0FC60E230B7B02D0
:2034A000FE0184F785FDD0F46EF155F7F1FB7D0BF8003A0E14F12EFA9FFEEC0CA8F49A0BEA
:2034C000D7F5ABF4FBEF7AE58DE4A9EEB8010B0CBB10E70984FF2CFAD1F8E0FBE0F4DCF9AF
:2034E000AB02D508130057069701A3EBCDF9E90F15EE5CF11CED0207D90106069C01FAF51A
:203500007DE582EB52F26EF88207BBFD11FC0FF55DF86EF9CAEDCDFAC207690942FC960493
:203520000A0EDCF735DC4B0F8913E1E7D2FC0F0F3EF8ED00C10566FBEFF655F81DF643E52E
:203540006BF1DDF840F8F5FC2602C1F8F4FC18008A09E10336074615F30D47020602FD09C2
:203560004EFE04FC41094D112DFD5A03220969FF0A08B908470432FE6CFBB1018CF9F3015D
:2035800095FE5BFE1808010A2F0EB7087E1179109BF953146AFCFF12A2090B0604EF5E0B76
:2035A00095121F019705280B4D06070C5606B407D1088F083A09E307F302F108AD0B750040
:2035C0006F0C7708D70D85125F023407A9F436FC910CA80BAEE7F113C00E4500FD02850D7E
:2035E000D10204014F07630C9406C408DD0CB006BB0AF8095F110F093315AF0BD504571990
:20360000640A5301A716E401B6FE34FF6912F61E60159C0E130846FDDE13F10D390B7A04A2
:20362000EE0B15084306530C2913D106D90DAE115211A406310E441AFB09D7FCEF193FFD4F
:20364000A1FF4503D01C320D0D0931EE0BFD9904C7049308C3043E0CC206B109880B690D7B
:20366000BA0E2B01F80FA6060606A9050508B7146AFFD4E1CCEE43FF3F009F028A15530025
:203680004CF5F3F1B7F468F81E037F045D096808BA099011520E4E0FDC07430F6D0AEE08BD
:2036A000740427FBE31CB019AC2C9CFE6AEF1603CF00A3FD2FFE9E09CE0C4DF66CF009F906
:2036C000F2F9250993062315810F0102960594011D0B620B3C03E7EA750136F808FAF2FE02
:2036E0004C065DFFE3FFD2FEC4FE06008BFDCE00CD0395FE16FA10E854E8D90378F8C3078F
:20370000D40CBBF43D06B105A6058BFE9F0E8BFADAE295DCF2E491FC98FBBC00A2FF8000BB
:203720001C03BD021B010EFD7A0135021A03A1FDD9FF0F00A303B8011D10C310620F8C13C1
:203740003D00C2005B03D90495007703D601CAFE7AFAC6FE26FE5E02BEFEBF002C04BEFF5D
:203760007FFD8CFE8403FB08340F9C13BA01D3EFCEEE04061F1272FE3D071DF177F0E9E859
:2037800082E337E7E8E61BF2D100AD04BFFF63FD84023204F3FDA30067F08E09350C5F0A44
:2037A0008A0E5EF924F163F87A031AF615F5DCF616EF47F39DFFFDD266DB58CF02DAB6EDB0
:2037C00076118114B4FDA5005A00C8000019F300EE0AFDE856EF76EC85EEF2FF3DF9A1FA90
:2037E00040F12B0A2200A2FA340094EEF3FBCAF917EAB4ED49F634001C073DF989E8050258
:203800000B0250F80E1DFB083D02E8FB0EFEF4FDD2F0F8F639F543FDE008C70006FED2FE65
:20382000C60B29002E029A01FF03E9FEC1054DE610E9B4E49B16EAF461FF4B032018D7F80C
:20384000DB0BAF19E8044AF577FCF5FDFBEE4FF6BB0333FA41FEECFB4F0A5002A80515FB83
:20386000C4F93E03D103ECF7FBF470FB47F894E2F0006B149EEB4DF3A1F7D9FFCCF325F701
:20388000590075056502FF06A0076C01A5FB71FB1B01E40146FEBC0010015101AFFD4FFD6D
:2038A000EEEA50062C12170A5F06BC24220B6704C6E943F75A00260325FFF507950CCA04A3
:2038C000C6007F07EEF9EAF95EFE4401D000C903C8063807B3025601F905E3F5A30F890863
:2038E000FD01A4202FF38CED95EE6D072F061F14830B0C0283018D053E08C8FEE208B7FCB1
:20390000C301560BD709A50AFE01BAF9AE08B7FFFAE862FFC90CAB1336023610BD09D005E6
:20392000140723104D0B030B810CF40C78FCD007810321FEA4FB00FFBA076B0C03098104F1
:203940003E04BFFFD407B803BFF2EBFFEC1B200FBD0453FB7B0512F2B0081A02F40D58122E
:20396000580E130A5507B80137F69AF4FB01680AFE0B830D2506D9072CFD2600E8FE98F91C
:2039800091F620008E096D130E043CE912F02FF537FCA90D3714591AE20A2E0A4DFC30F6D2
:2039A000A3F52BF8B3109811CE01250449FF4101C6FF5EFEADF9D6F42D0C090671076B1C86
:2039C0008C06560446039F00CAF885025CFEC10059E91AE274E3EAE269F98E03650BE80201
:2039E0009C0AF2FFB3FDB6FC34FC7FFF83F6B603E3149B0A60022F20740193FF3317F2045A
:203A0000CCE0DAE9BFD303D0B0D941E0EDE411F1F2F72909A30C7303380695FAA801A2F409
:203A2000A40432052206E71892151D11181ABB0A86FEDFEFB9F0D300E7D340CD5CCF85D699
:203A400054DE03F11CF8E9090D10A610CF09AF01FE0627026600840080FE5D05F90E0E14BF
:203A6000490C08024714811986FF140BA3F6A307E6D234E432EE13FAA0FB2602B00533174C
:203A8000700E0317FE07CE0481FEA9FB5D01170173FECF0AD30EDD0C8D055DE6BAECB514C6
:203AA00031FEE70A5607600EDBE4BBFA42FB7A05B00371129E0F8C0FC81AB014050760FA61
:203AC000D8F8DC045F033E06C2FC440153F3DB001EFC37EDB4F61B0D42FCA213BF0C31FE6F
:203AE0007DE971FDDEFC0A09CE0325095C0746154119840E7EF7F7F22BF832F950F217F85F
:203B000077F2B9F242EFDFF920FCC8FB29FD8FEE12F031105B0368069DF132FCB4FA190470
:203B20000CFA640474169B15EE1BBB0A22F321EE52F2F7F16BEFBEED1BF2E5E66BE798FBFD
:203B40002DEE90F837242A0517FA05FBBC018201620C7CF993FD390786FC0D0ED50C5C0D4D
:203B60007000DA07B0F740F509F355EF56E2A8E8A0EA26E63DE5FCF29CEF22F3C4154C0E97
:203B80002403D1E85608A2132F130CEE06064C0D4C0881068707440C0B07D9FD41F6F6F9CA
:203BA00019F4A9F457EFEA023DF99DED2FF9710BA4F88DF3CC14A003D6093305D101A70A8C
:203BC000C8F85F01FD079B04B2FE8EFCF009EA0391095902AD0183FE2DFE52F92BF66B06D6
:203BE000DEFC6A035B02D80874F1B7E6C9F68301C4032E0ADDFB86DFF4F6EB16DD083402BA
:203C00007A006902330577014EFD5BFF670993FEAC06FDFA6DFF45067508D50AFF0EDBFFC6
:203C200034DF14E15407DDFD8AFD6B01230AEAD63FEE78F460054F09F601EA04F6FD13091D
:203C4000F8052D09BCFC17FBF308F4FE3E0461FE42FF4B083A0A110914EEA0F52D15F20418
:203C6000540016F986F1F6F3BD02E1EC86FEE4F660FA0CF9B0F91C0768FC44FF3300A102EF
:203C800069FCF4EEB5EDB9FAF2FBADF6F3F850FA53E70F1A92156601B002BD01E2EC831081
:203CA000610626FA0202EF01D0FFEC00840400FA3AF7CCF5A0FF2CFEC200F2FD30E481DF6C
:203CC00093E724CE4FBF48F56CF17307F90F570165FE1D05590403ECDFE4C4E8F3EE3BF8A2
:203CE000FDFE11F670FAEDED54E027F0DEFE8EF1F3E900F40FE432EF1AF0FEDFC5E6EF0D66
:203D000034EDDF11710092FE7401C0FFFA00A7FE990DA11DD309980647012AFE111B300D07
:203D200015073616C30BD5182D248DFA9BED0E045DF604F193EE6C009E0052FCD1FE90036B
:203D400023029EFC63FF4A01B3FD0201FFFFF1FD1900CEFED00044012F0CB310CE0EF60C82
:203D60002203E8FC970063FEF9019EFF1304ED01DA0129FF22FFC7FD4AFF3A0006FD3604FE
:203D800037060F07660A780E310760FC31FE5B06F51041FEA6FDDA206F1EE0097F04F40CDC
:203DA000C0110E03530A800A6102BB024F004CFD1AFE5400AE029F0515088A001B10950B50
:203DC0003C0FA41DD6220916671C9A187F0DBE24382A2A100C0FB6FC9609D613F2FFE90250
:203DE000DC097C06160405022E00EA00581C96068FE4A5EF3101D909CD1ADA1F4A0F380186
:203E0000F310BB203113260FCB1C7211D7098DF985EA1BF912F237F95609560010F7CA003E
:203E200061FFDD03EA17ED131AF0D7F8430A49FC2610D30F9D078A04CD097803370E93154E
:203E4000EE0AAC04390106FCEAFC80F0A4F3E9F047DCB0EFAF0851F72C00E2000B29AFFC0A
:203E600032FB51FB8B0573F901FBAAFABCFE0AF739FFDE0CCA0E020FEE0BCD03EA0C9F0504
:203E80006002A60891FF73FAB1FAC2F5D2E6A1E60E00431114F74D1277F4FBF906F960EFFB
:203EA000DDF6F4FC29FF40FEFE05520A670C591ABC15C3107A183C06F707280C24FA2BF3AE
:203EC0001FE25AE796F0750CF4FDBE1A2C0B28117305E6F9F7FBB4FBAFFD1CFC1CFE67FB28
:203EE000B308DB04ED083C0F6516F712EA10B310EB068808D40558F9FEEADFEB68F1D90F09
:203F0000EE17F7209CF124F89EFB20F42CFBE500FFFF4CF965F97CFA90FAF603730CD40E28
:203F2000C51077171D11F114830CFC052912F1FF8AE3D5EF6C0ACF15BC03300EA3F202FF12
:203F4000340072F0B3FBCF0451FF38F6C804B8EE76FBB6FE67093908060B2F0C8A05F410A5
:203F6000850E1908D609E7066BF17107C20AC1F7AA03CBFF9AF7F5FC0200BAF1C3FAA6F36D
:203F800069F853EEFFEE6CF142E0AFF52EF611F51D094CFB2D037E047C0D2B07510A3E13BF
:203FA00010F5E0F641FB5EFDBB0A4112D4F8ABFA8DF632EACDF3CAEE14F4A0F5B3EFC4F6F6
:203FC000F0E350ED35FA43F07EF2E8FD14045B05FB189110C5154F0FEF0653075FF8B1015E
:203FE0003309590232F8B5EB38FE5EE6F9F72CF5C6F776FC33002DFC62F0DAE78DF7A2F61B
:2040000001FD9FFD0F08240A810813079906DD000FF36CF450E5F3FB350619F3F1F9E4F216
:20402000B2F9D3F2CCF980F353003603DBFD18FB34F4C5F88901E80022FF4FFF79FAB20373
:2040400040FB58FFAFFD01E997E2FBF804F57B02B5E935E7D20812FAB5F8E2F953FD7DFD64
:20406000E6040F03A3FB14F570F582FED104A8029EFD62F9300385FE8B01760BE1F862EC59
:20408000AEE453EFAC10BB0E9DF02BF89200AFFB50FA1206BBFF5D06D30144FCEFFB7EF8E8
:2040A000CDF24A00E603820317FA8CF878F60FF567F8C3FD4CF6DAEFEAF284ED3309491373
:2040C00089023610FE0C93089F011305D9FF0F01D5F805FEA003B6FFF3FD16FFA1FD22FFDE
:2040E0001406C1FBB0F5EEED1DEFE6F5FCFA57F6BEFEFF099C170A13590092006AF59108C9
:204100009AFFF0FF07F9DDF307FE2FFFA9059BFF3600DAFD6D023503AEFF6CF924F4F5F009
:204120007BF274F3A2F71AF44BF29E15DB10CB0B62110C1798E8EEF9DBFE21F6B3EFB1F71C
:20414000A8FC99FF79089FF9B3FB0402FE018B0356FD9FFED5010D0158FC8EF8A30667FE0D
:20416000F001F2147B0D86F3ACFDC71000FB03E632F969F45F04BFFFA2FEEBFE7A051DFA1B
:20418000D5FF3202FCFF8BFF84012806330524085A0F0200F009AF026A08A3249C08E7F6AC
:2041A0002FFDEB0FAD05E7045905AE00DD0F4C112F06380085043C020602D709840DBE0478
:2041C000980046075F08AA0EE10FB70C421174081F1028105B0D900D6602B102A1275F2289
:2041E000800239099F19B91226080F0B9710AE0AB10B190DCA0D250CF40FE809DC0D690C95
:204200006902F90ADF09910F3312C40EC30F0E02B402E4FD5220040C5A0CD824ED1E8D1389
:2042200028140B15C60D830A660A69043E10FC09890B62061804F50192FD3E027AFF9402A6
:20424000BA077B058FEBC903CC0226014F1428F718058600B704280DABFEEA07F8011A061A
:204260007907DB06E60060060EFFBD04AFFC31FDE4F9BEFDD80F1412D5084400F4E92FFF19
:2042800099FE46031F023305631253FB51FEDFF3E9F9DEFBB1FD99F88A0260F944F965017F
:2042A000A100EF08BC0309FB17FFA80F70FA1D038024351BB71282022BFE9CFD1DEDA4F7A4
:2042C000B1F11DF40D023E0134106206C3FCCA05190D4CF92E05D9FE8A0196F6A1FFD200A5
:2042E000C8103406F4E3D0F060EE85062D0E6AFFD2FEF2FFDBFC2804B7EF40E4C2F1272010
:20430000941AAD167120F711EEFA65FC7D0355F8590B471C7D119D112A21F0034EF9A1F75D
:2043200005F295083700C203CBFCA500AD00A0016C09640D8518DF140E21E7059225521782
:20434000BC0F2B25AA259225FF255F24CB0A4404BEFD7DFE56F99E0628FD5FFF8BFFC4FE00
:2043600016FF32031DFD91008AFE42FF30FE960519FDEEFFA705C7FEBD0160034B002903AA
:2043800027FE910062002502DCFE0B0191FFD3FD3BFD57FFFB03B8FFEBFF140091019B002A
:2043A0000FFDCDFE1DF414F5A0F480F48DF29CED8CEDBAE2DCF0C6E357E5ECE4D5EDC3E5FC
:2043C00017E9C2FB35F107EDFE0224FE5F0333FB670133000BFF3DE364E1DC0984F9EEF109
:2043E0000FF143E539DE9FEE6CD4B2D29DC711E4B5ED37ED8FD7A4FF7BEBF8EE39FACDD2E7
:20440000A1049E0D81FDA800C1FB7C00121BECE23005FDDE8AE34DE042D766EB4AEB91E534
:20442000CCD5C4BD27C02CDCC3E4B9F1CCFDB6FE5A062B11AE0AF1F0D4F43D15C1FC57FE3C
:20444000DCFC790399144F1300E3B8DDF0DC01E9E6D812E59FE5DBE748EBD4E300EED1F334
:2044600000F55AF32AFE27F579F93101B4FB5FFC96164215E70749E7E6FB04FB3BED76FE6B
:204480005E00420314F2B8F162F80AF775F5E1FAC2FDA8F71CFA7BF25EF098F798FAAEF438
:2044A000FF01E4FC0B05A501F608031233113301E7FFF0F0710B63042E016E126CFF05040F
:2044C000E9F36DF8ADFFD3071406FB06B210580AD6FF820738FFB10B230BB10027FF760208
:2044E000EA0EA519852A4AFBF20B02E4461F860B08F060F7EF0002FDB7071A031009CD102B
:20450000820C920A661068084010D0024C05940A180F9B0F2E0765FD99F6330D6E1897FB2B
:2045200075E93CFB3213D8F970F18B074DF3D9F9C1081C02820781185207530E3412CD0CE9
:20454000BD03FF041007DF119907D607C10A5908B314B128A8281E08870065093DFFA1F48C
:204560004FEDEEF9EA0096FD5709AF081A11451C9E15A30DFE0B960E99036207AA096102CD
:20458000DDFE1B099E04A1044D1B072A75193EFD1C043B0ED9F7A1E5F2F4330E03039C05E6
:2045A0002D0BCD0C0D0BC7117F19690DB1018F09E703F9F8D3F948FE2DF3F3F478ED05E65E
:2045C00038FE9424791AE009E40BCAEDB222C4DC7DFF2316900CCC026B0A770533001F06EF
:2045E000550B24F41EF50502900A6A00110326FB11F14BEE1FECD8ED1FE7760B4729AA1232
:20460000CC101805E521D4F6A208590A1901C403EC017FEF31F885FA19F21BE65CF2670619
:2046200063055BFB990689052DFA89F2EDED12E94DD43CF8581F410824EF57F99721A9F748
:2046400028FEEEF6BDF84F02FEFA4FF857F585F2C6EEC7F49603120B450B6409E2FD720312
:20466000990A70FF4BF57ADBE7CE7CF112104B03190BA2FEB617ECFF57016AED1F0383FC35
:20468000F4FA5AFDAFF875F053ECD9FB9A04FE05BC086F06AFFECAFFB50738F7EFF996F00D
:2046A00010F406F88616C5117D0DBC0644E29B01FDFEE7FA3906C2EF22019AF36CF63FF764
:2046C00068F6BF0173F68D0446001303380631FA61F6DEFB42F6C9FCEFFE31EFA027CFFE2F
:2046E000B00897EF61E308FBB5FD0BFC6608D400EEFB25F5A6F9EAFB4805070331053F0DDA
:2047000075061E061503610061FFE30A3BFEC3FE56F6A70EE41356F3C9FFC209B2F89BF62B
:20472000AA02BAFD9C0837FD330DF20A3002EEFFF3FE5C02480236162404ED029E0732020E
:20474000BEF6FB020FFA26EBC9026E05FAFC26EB7EFFF6F33D0E84FD720329FFA306730658
:20476000CEFC480143FBF0005CF1D4003011C20EB208FF000C011C002CFD2D06EDFCC3ECF0
:204780003BF73207EA196006FB08F8F0B80E55EF01032AF67CFF7C0369046EF456EF2FED02
:2047A000C5EAF7FE540FE611400532FA2F03890104F81FFB9BF652F92D021C2E4EFAF30F19
:2047C000BF00B0FC870C88EE48F4E6FA48FECFF3A102E7F5A5EA0DEFF1E99CF59DFE24020B
:2047E0008B0C510BE1FE5CFE48F67DF3BCF8DBFBCE14EE34CAF61A0CFAFFD3FA310828073D
:20480000DA05640BAAF9B3FC32FC6F0214FE29F249F8A0FCF0FEFA00340AAA0538FDDC0069
:20482000D601EC0D7BF6A0FDD92B6F2366E6F6FF9506A3FEC2F710F8610E5F0681F9EC028A
:204840007DFCA2016D0476079501CBFC6406ACFB5E072A097F0689FE7508B3FF86F87D0111
:204860004C28F31EF70B55043703B30155DB1CEB000B2C08520466FA71F437F4D8FD09F9D7
:2048800023F88DF268F724006C04BE00E403680B6705AC086918DA150C0FA21706191BFFD6
:2048A000E9FC61007210FA086F0678FCF7F26CF336F887FFCBF8F5F97FF6CBF355F1E8F641
:2048C00090F900F9AE00880FED14D31CB41E0C1BE30A6BEF5A098A01EEFF6900A9F7C72214
:2048E0009C07A1FCA9EBDDF57CF4960115FC90099307D3071304C808E4084A06BA0870FD9B
:20490000540B330DD6155A25A41CF8FEE005F40262FF5A0123000D1029F15FEAB5F3CB0E1D
:20492000FA1547233B0C291597173B173F20B71D181CC91D90199B1236186B0D7EFF390D4D
:204940007F17E1063E04F20585FECA00A101C501B9FCB3FBC81101162A173813132D9F2905
:20496000FA29AA320231BF20502EAC476F2B1F0BADE266E9F6E952F5D2FF98FECA00FCFFC1
:20498000AF03BD0382027FFECB01BD01B1FEFDFFE1009CFEE4FDE6FE7F0A400C8214D90AE1
:2049A000DD0400FDA5FC8402E8FC2900C600FEFDF701F9FD4600D3024DFE250139FF00FF73
:2049C000D50929072E111A1A3C1EE11DE61CAD1FF61C2410E6F35120872F66233A255D1F86
:2049E000AA257D18EB17A111CCFFB9FCF400F0FD14FFC7FD75082D205E1D50188C208C2E54
:204A000038348A302C34E332332DDE017FFFC8F932F9D30DC21927152B138707B908691F46
:204A200079FEFCF339FF9BFA5402AFFD21EDA61F44196F000015A6082B1A9F2E0A1FB01BD9
:204A4000A8173B1F920E6501AE02D60340FD92049CF75E00D4009F11D717D6F53B0ED0FC98
:204A600030016EF902E4B6E27BF23EFEFF0597043200230EE3FF8CFC76FD99F3F2FB02FA23
:204A80000BF116FF8FF950F560FD8DF632F4A30F66FBCA03C404E01913FD7E0410033A0AA8
:204AA000DE00B7E537F74EF5A9FD09FBC10748031300760363043AFBB108000AEB05A6FDD0
:204AC000A00C4904ACF93AFF15FE0C05F314801D120138F5B60D0610230ADEF78CEC8A0119
:204AE000A8F682F174F4DBF8FAFBCBFEE706BE0406FFBEFBB6F7FAF9D1FBD3F7DDFC37F603
:204B0000F90D32146D0303047E0126E1ED04DBF853FE140070F609FF12075EF4AFFC580443
:204B20002EFEABFD700416FD8BF85BF022FA98F578F0D4015001A1F3981DE220BD02C50A3C
:204B4000E619EE0859FA4CF2E2F76CFD71FFC6F570FF72014A013AFF970016036E0012FAD2
:204B60008FFC74FBF6F531FAB2FECDFDD1F4EDFFDC1223FDC7E65CEE3EE872EFB000AA0A0A
:204B800078F46E059DFC6901C4027403780106FE1300D6FF9C04C3FA2BFD60F8D7FC12F9D6
:204BA000000159FC97F08FFDEF1740FD97F08A00C7E969EC10F8D304C0F9C5120008390281
:204BC0000205A90A830853045401ED07630E4505D6FE4EFBF1FE70F65A00D3F944E99902D5
:204BE000421D91FB18074BED92EA1C152ED930F5A1FFD404BA14D9060C09AB021AFEAAF8F9
:204C00007DF5AEFD28F91DF7A401B1F6CAFCAA03FFFBBE07CBF840161E22CC0AAFE755E2C8
:204C2000E6FB39F130DF7B09090D050BB00B3A0129076EFF08FD6200E5EE04F3F9F9B6F450
:204C40001BF406FD1BF7EA0128F7A7FBF9F967106B133F0BA5EB0DF036EC48F99EE452147B
:204C6000C1089308F5076000F1FDFAF700034EFB5A03A3053201CFF799F6E5F8F4FCAD063C
:204C8000A3F59FFBC2077B2FAA1D8508AE04B11D120E46E2BBE3D20B70FC0B00FF0CAA09A3
:204CA00032FA13FC1A0F930C420413046EFD1CFB6DFA27F12E0097FDE4013E01D308571E5D
:204CC000F820E60B990EF7203A0C4FF29CEF2CF3EC01A60E8E0FBD099DFF2001F0049EFE8B
:204CE000230247FE3FFD75FDB0F8E5FC5B09F703460287071BF8E70231202F2794F21F1384
:204D000016EEE0E968F2F0FA67FE2C123B0E54FEF1FD7A0343010B096F04B3FF6B00E3020C
:204D2000B6FEAB06F908FC066E03370E9E0F73077A12523FC718711EC003ACE4E9F83AFF36
:204D4000CA043A129313EAFE6404A3080413FC0ED802CF004BF898FE8B00DD077810A10459
:204D6000C6067E03E60676FD3600D02482057E1E4805D1E964E92FFF601522103B167C1A2A
:204D8000810D4E0F8E17800D08106D032303AD008908600B430AD601ADFE3DFDAA06E70EF1
:204DA00038138823A8DD62FD06EE51F571FD610197091003ED0AD617CB0DCF0E6819471AE1
:204DC000DC1998151B12480A8007300726054E027906C0FCB510C711BB08C811FF142EF6CE
:204DE0009FFE360371061208AC06D2144801DB07DA05E00CCE12B8158F1BBA13C1095A086E
:204E0000AF0541FA4F05F6000904D506810A8312AC04361B5E0720EE91EB79F7C2FF16F327
:204E2000F4FDDFFF53FFE4FF76FC0D0A1606050F890C2813260D890063FE890310FF30FC01
:204E40005DFA7D06210C250C5A035F0AAC250E0473EA74EC0B09550B5E01D1F747F959FD83
:204E60002102250918068B05660C2E0A9703790285028A01E8FB03FB47FDE6083BF8860195
:204E8000270A7A109209DBFF22FF2C026E12BB129D08250066F8C9F491FEA204B6022EFF47
:204EA0003C036400EF00DBFFE9FAB8F351F582043810760EE314800D431885179EEB42FF1B
:204EC000AC043001CBE82BE4FFF534F817EE0BF3A3FB73FA60ED5FEDE5027A00EEFE68FBB8
:204EE000B9009BF71C030DFE5906BB0050128FF93C2609105F071FFE00036800890760EFF1
:204F000000011EE7B0CAB5BD59B3ADBAAECC7ACA35D062DE63E0C0EC29EE1AF4E3F57DF6CA
:204F2000F9F461FEDD0DDB0BC01AA016AA1092001100ECFCC1032EFD6816410D4E00D0DDCA
:204F4000B9D4F6D65AEF1908350FD10439FAC6FB8EF65AFA200084038D0EA80344FF72E423
:204F6000C2EE0C039201B8FF0DFBC4FE92019CFE2AF34EEEE5F635F3B2F1C7F4E2E988F331
:204F80008FF80EF5D4F75DE0BED608DDC5F45BF3100E5A0B81ED83E7DFFFBFFDBDFE9700B8
:204FA000EF0469FAF5FF32000FFFE2004900820029FD9403F8FD13FF220E660A0EFB4FFC02
:204FC000E6FFB8FF78FE7D00ADFEAE05F80155FF5AFEEDFDFE029E002DFE540347004F049B
:204FE0001A054DFB2F102110A616641966208E243C27C01AA3FD4EFB0FF8D2132318932267
:205000003D283B0F3CF7F3EEE705D7FEE30259FF4900CDFFE1FFBB0E271C6801CB151A1E4D
:20502000940325E9C9EF4DF8D8FB4BFE10092A0272FAB9000700531A400B700FE83116FEDD
:20504000CDEF04F2C4FF3F0272FD67FD7AF06A0C9B105008950603EFA7F1D6EAEAEE28F708
:20506000B9F3DD0579070D0E67FE1D08BF0CD30AE7086A09920D7A363201AEF01FF9ED024C
:2050800071039F068AEE3BFD3D18CCF226E86FFCE4F7ADF77EFA95FC96FAA204A9FD24052E
:2050A000ED094E068D05FB0D8908E41771144E27100A59058D13A918BB022B02ED0146ECA3
:2050C0000BED2AF2E5FDFCFDAFF5E4FB23FC12033D0076057305D80994F96605BFFD2B0E2C
:2050E0000C072A08AE04A4EF4F112106C016BB076AFF7FEE62F286D9E0F146FE5FFE720595
:20510000AEFDB0F6F0FE910362082E0B5500580274072C0A2C059808250BDB0A7F09ED0856
:2051200005126618E9FBEAFEF2FA7FDDA1E1F4DAE3F700FED2FCD8F6DD009007740C1505F4
:205140005A0B690EE60AE9128713C20C0313BC09B60B690A76091B199E0FF90F4400C0079E
:20516000911ED0DABC02B4027DFC3805C30B77FD490F7E0E650C030DA30A6C10D60B53099F
:20518000ED10020E3F0F8008370E1210A200E707C12DCE23B118E9212BF778F4B9FD1CFE25
:2051A000BAF905FEE10C4D0B640C4606580D2909DD0BA50CE2FF4F027104C805910C4B0F9D
:2051C000BF0A7C0500F94802F132C41A09065BE9A9FAB8FD65FCD7FB320864FF97036C07B9
:2051E000DA0C780B380B1B08BA0F1903080175F87E00FC0571055D0094FDE4F712FDAD0209
:205200006F13E0F7BFF9B3F51FF3BD05D0F90CFF2DFC53FD8B09E30F701488093F09630965
:20522000E1043409FD03DDF7D202880684FDE7F650FAAFFC1AFC9EFE3C1086EA291526EE03
:2052400071FBE4EDA4F7E60DC901AEFF1713ED0E9603EE06C3001707B002AC0806FFE30328
:20526000ABFDC402EBF9E3F9AC01E20C47054A242C1B59F074F4C2DEA7140E0898F3420273
:20528000A3179009DF133711E5FC45061401C201220711FFC2FDD906B5FD97F81102350914
:2052A00019031E07E0110209A2F861F986E96FE9C003820F60EA85FFB20B1E0E4504160686
:2052C00009039F06F20084015C070E0531FB7400C2F9E1FEED00E700A4049507C20379F2AE
:2052E00061F7D5FC2FDE19E860024808ABF51AF1B0FE14F4C2F32C056E065F024503C30797
:20530000E00564FBE7FC87F4D4FB87FDE30811FD5202DBFF7602970234EBB5F7CBE850E9A9
:20532000A1EE5F028EF8A7E333EE68F49CFA2A035F170706B804E507FE0155F38CFA65F9D7
:20534000E0FF01FC4DFA6BFAF9FD08F2F8F4C4F3FFEAD4E630E088EA260002078DF0D6EF9C
:20536000FAFA2AF558F9A5067807E10C7B0958034DFDBAF270F82A01C907B10118FCAEF610
:205380008BFCB5F654EF58F93CF984E594EC8E0661EA3EEDF90578EE3FF082F75DFAA9F51E
:2053A000B8FCF109160B790257FDA1F2B5FB71009AFF8DF89DF69FF762FDE0F096EA6BEF4B
:2053C00003E63FE76EFB37E34714EFF0FD00BB03E0F738FABD02E4FCA9030DFCBEFADAFB5C
:2053E00039F80AEDC10149FEB3FCF9F6A1FF8900BA06A4FEB3000EEFFCF119E566D9C3EDC9
:205400003B011310D5FA7EF35B02FD0885003EFBBFF8E4FDC2063E029C062C037303F70BE4
:20542000280B5D04EC04B705AB01D704840170F4EFF14CF979DF6A0E3506E8F9B2ED950671
:20544000C706B5024D0BFF0DC002C20235085607A709560ED50D47153F0A93FE240286F973
:20546000DD09C8057A097FFCE3F404EEBE044DFFCC029109ACE9D503D8FF8C00970945097E
:20548000D8002E06E30A6608920EC312AA144214EF0AF3055101A8FE08040601340DBB0B19
:2054A0007DF3FBF68F1AE5030AFE81FFD4EE61FE63F16AFCD2FB0FFA5F0686049606C10570
:2054C000B30D1D14FC15380BA20934024DFB53FA7BFEAA0277059B04ACF55CF5E70D50FBA0
:2054E000FFFD56043AEE40F20FF46B072BF6190237064C050E0FE813610FE1113C07A20856
:20550000C704A5F43A06D30BF607F9F5C803751852E069DF77F06A00A80126FD8617B80951
:2055200035F27F0527FD06FB51F2F8FDF2FD03FF0DF642F57EFC74013AFDAB03EC048A09E1
:205540008F12F615CF16CA25A80CB8FE8DF3F4FF7C00B6009BFCDE07FC102B1FA6137F00B2
:205560007D03E0FEAAF94F06680984FAF2037FFC72F94FFC3FFF50F19F0860FD6AF960106A
:20558000231B4AF5210662017300A502E8000FFFF3F81DF12A03A8074902CDFCF8F9830394
:2055A00093071AEF2FFEC3051703C9E859FF44FD8DF4B4E411E9D2E4D1FEB3FED1030DFEC7
:2055C00095FA6DFB5404C7015B0375FF610190FF6401C5FE64FE2EFE3A0D31132112ED0B85
:2055E000F801BB00CD0237FE4EFEA7FDC6000BFEE301070047FF0B0147FD750033018EFF7D
:20560000EC03890B8D11851217165415EF0D6F105419370879F969195A1DF51D851D9C1941
:205620009E21711BB5123E11CEFE80FC6F0064FEB6FE3CFF58FFE10D1717ABFECE01241ED4
:20564000A1143404A8185A1CF510DBECDCF1FEF383032002C20A92022D1B6411FB07FC24B6
:20566000CB10BF10DCFD7EFF80FB1CFFF809B31EA1123816FD21AB14D926FC1D0B1C391E4E
:205680008020B310060F5E109F1225092919EE137A1FE60AC7F1F50160090B0A0909B30484
:2056A000F8FF8D041C13A9293C03DE0F3C1BAF0986162C11A721581A1C11E507BB0B140A16
:2056C0007C0DEC072A0D24FEF6F456F29BF8D1ED5B08FB0E1013A8FFA700ACFE6A3010142D
:2056E000350D16020704850A69F300FA26FE3503F7006801BBFD82FF6805E40389FEE6109A
:20570000820A45F8B7FE6AFC89FCCF072E0D94F246FC1912A3009E076B0AF0FA62F94AF2DE
:20572000EBFD8603260674FD4BFCD7FFDDFE8B0200034EFEC40BBB07E4FF19FEDBF960FDCB
:20574000720B3416A20018074AF4DB0D5DF9EC025F1743FF69F90AF30B02B8F5A6FD49F9A1
:20576000E7FCC4FD8C0AF208E20013FA82FE1B009FFD9FFD39FFFAFA9401F81137F96D07C5
:20578000DE18E2EDC7F22BFE0911C3FD860054F689F63EF16CFA5AFA3EFB3509AB0338FEF5
:2057A000CD0206034F032D0768058306FF0844F603F8CD0432096220A4F415EB7AFA8FFB35
:2057C000C90C9DFBBE0101FEDCF5DBF278F839F3A0FB3A03890E650E9F08C6014E00D505EC
:2057E0000C05C401BE06CDFEA906ED187903E5EBD5F288F7F4EEDC0DA2009AF9F8FFD2F83D
:20580000B9F956F582F670F7E8FDD7092B09F1FC870832042808C0061E0027F86C0023102F
:2058200048FDEBF7D11164F00BF004F7B0F14109110B01FFCBFCB3F905F9AFFBF6F7FEF810
:20584000EE06F8176F14D3FF9BFFEA02BD042E0318FDBBF306F95BF6B3FC14062A309FE4BF
:20586000B9F3CBDB30EE6F04080FA10752F70AF227F1EDF5EFFDC8F94D077E13F815050B98
:205880007C08B908C406CE0098FCEDF4C5EE4FFDAFDF0CF0530851EE2E0D61F3AEDE6DF813
:2058A000E3FD44FDE2F254F237F629F97BF588F2690B811F931C7712550EBE00A70AEA0963
:2058C0007502B9F812F5C6F514E4EEF00816041D6BEE4C1244E38CFB0AF810EC04FA39F03F
:2058E00098F99DF2C7ED82F7A70E6215EB18D6111409A807260A05FE44FF1B0973F459E53A
:205900003EDA7BE73C218D0457E99C0FAAF977FA08FB85067507F2F992F936EDBBF05A0276
:20592000E115B616B613DE04E40AF80577029E08CC09660240F282F8DC0079F89100770CA6
:20594000E7EEE816331C9F0CED0609061004E0FA48FFD6009E0AC70D870FB8150C09A8F5DC
:205960002900DE006301C40418FDADF77BFC3F02E9126A0B8E17DD1009FFE31A67FD121AEC
:2059800028FF41F5960095084115B80958072204D306460BDFF86EF3ECFD9F045DFA8B0803
:2059A00012FB63FB15F71C0177E9DCF7E8086918780B8717A4FDD51FFE04EE01200BE90AEA
:2059C0003B0AFD0AD612160DF608A20701F955023504D1047302020405F941FF480615FC52
:2059E000C9ED32021DE8B51160FC54EB44EF4B136D057A10850FD906500C500B6D0F3E03E3
:205A0000410820063DFFDE0463054708210ED20B57018C06F30C110992F5A60FBD0E730AAF
:205A2000B6FD7EF295ED4B17DE0D531178122A160F11BC0D31079BFE01F61B05F707CB05A7
:205A4000410D730E85134503480DFB093B0E2C0D64EDC40868F8920BCCF94B0A9F07CB1403
:205A6000F610BBF9AF07DC0CF6063B038CFB460483FFD108350A0809990D8B0CF30FE407EE
:205A8000CF03A0FCCC0AF008B4E2BEEF4DE4D700E5FA3905E5FEC512E20832F58DFC5DFBB6
:205AA000C4FED5FE5FFEAD0570042C02070386055B04B40B680D6F07250DC30A671CA117C8
:205AC00070EADAEF03E71E0040FCC0FF7617FB242B12DD05D6F9F4FF6C05E1011C08430D4C
:205AE0001CFFAC08DA01E800EA01250D7E15B1085718520031113F1DFC0714EA57ED1400F3
:205B000043FE8B022BF5D40664082BF6450D3A0888052D0B0A0A480B0B08DA031F01FD045F
:205B200037131A104F0A9D056B003BFB7AFCE213EA02AFEA00F6DAFF190110028E1F07DED8
:205B400067F907099B11C211780E850BF5120A08EB0DA108D60E7704360A30086E008B14A2
:205B60000416ED08DAF9990EB70F4501D8F69B0234034CFCB0FB6F0CF1138217ED10A61030
:205B80006A056908A211B90FDB094C0FF917CA09BD0DC218830FE20580217516140F991E65
:205BA00098178DF610FF130157014403BDFE8900DCFB1DEF820AEB11820C45062807FC0B33
:205BC000340D7EF7A315A505D604A5EE9BF670FB15F3A3E976EECAE192FA1D0239FF490273
:205BE00022FE3A00270032013E0004FD2B00C8FDBBFF3200560310027D074701A7EFC3F254
:205C0000E3FCCAFB4F00E8FEA3026A010CFDD9FF90002B001E02BF00E8FDDD01CDFDFD0195
:205C20002005850188FF5C01F003C3104E17FCF806FED20DA5FCFDE559E331F15C1D9115D3
:205C4000E3075702BDF04FEF93035202AF0091FDA1FCFBFEBE0567E6F0E8D6071500520D20
:205C60001C0D8EF6AAF2D50540046BF9ED13380DB1F6211021070F0F7C06680900114DEBBA
:205C800044F351F2B502BDFFEFFB0601CBE6AEE565E91523E2153118AF0318F90905771DB7
:205CA000610A61FAF308F60424051008080C8C0654FBD60DC01AFB1A70F5B0F9B905300124
:205CC000EFFA54FB19EECCEB8C158FF87EEC5605980AC3045B01B601D1051A0083FCE4F31F
:205CE000B801580AB002EB00CB0B4F17410EDA06C90C51027CFD1B0D95FD92FF5FE373D808
:205D00005BFB68FBC206F4082E185B0C9D07D704B206C2FEDF038CFE1A05D207E5FE51FECC
:205D200081FC2DFC31FB57FB120C9F070501851114009BEDB605FFF5F503950398004D0619
:205D40007B0FCF12D3016F086C07A4FB120437FF99FD530C1E0370055602CB06C7FE570F50
:205D6000DB0AB1F5CD06431F6A0618FDB912A9065FF9F5F6E704B20E620AF30DB80AA5059E
:205D8000EC010E06E9F6DA0167FF20033B07340410040C0A6BFF9E0F860B38FC8A14381752
:205DA000B2E2F30E72030D0713007C083E0B4711FE0FDF0B4C022208CD07C001B8F658FC87
:205DC00098FF2FFA9B0498FED900C50E5802DF0A1B1AA21E8013A1F9450FF0199FFF50056D
:205DE0008202120F250E4E011400ADF95FF8E002F20020FD6BFF36F72FF542FFCA01A30709
:205E0000BF0AB10C2E07FCFF240FFC08AE0B7606DC08120CDC027DFC5B0DAB090F071BFFBB
:205E200093FC2E0949070401CC0A44056006C6FF68F54AF537021E0A6612C30C0608EE01BC
:205E40008114380BB9F0640DE5137EF321156D0CAA10630F9606AE0FB514E71D6A1D8313C9
:205E600057193E0C1108D9018A009A03C00DF809C10BA50D720AF202250C8AF9360D4B1739
:205E8000C210D620551BFF180C10EA1BA30E1A1FAE1A4214400EC116CBFF6DFE4E02450F8C
:205EA000BB0FA30EE70F3006DB004505C60AB30EB8080BF58C083E13B6EE9B0FF6218810E3
:205EC000E61DD721A21B3111AA0FCE08C8090F0A59F881FC25097C1B50139D0BEC09D105E6
:205EE000FE080306B707A2035EFBCBF040F0A3E3EEEE2F155D2BAA14AC06D31542082301F8
:205F000048FEB6FE9707D30503F9E5FAB108E712320E700D7203A90D13FE4FFC6FFB54FB87
:205F2000DCF165FC32D652E972FB82FD45FFDF07AEF822FA4DFFF3F1C8F94FF3F6FDE6020A
:205F400079F890FECC0CAD0F9C088A0D7B01D502DF03E502E213600068DFC5FB2FF3FAE9F6
:205F600048142CFC05FEAFF1F5F499FB87FB6106300894FE4AFA4CF599FC4CFFDB079408E7
:205F80004C00510A4801C5002403890484FF8E07FEF640F1ABDF35E059FFECF97B0A0700F3
:205FA0006F01C606C9FE7E01D5F87EFBADF560FD9807E20DED094F0179FFFDFF8301B7FD9A
:205FC0002407A7FAF100F006DFFE32ED79E71CE3D51A05F49A1BA50548F95F031105F807B4
:205FE00074F9CEF981FB9D05260D2A11A1FF22F1F2F4CBFCCFFAABFB02FE6EF5B5F106FE05
:20600000E3EECDE0820AA7F49FF5DB159916670FB5003C01C5FCCBF883F88AF418F855FE60
:206020007E0C410260FAF4ED0CF6B3FCD5F066FAE5F848FA36F74FFADAF206C80AED10F05C
:206040000AFFF6FF2C0188ED00EB9FFC8FEF71F89FF309F16DFAA9F8D9067DFFC10341FC43
:2060600011F397F55EEF02F3C5F6A9F73FF9E8F755F56DCFF2E3E2F2A3ED06FBA5D596CC40
:2060800060E0CEF276ED49F762FC280285FD61065B0984101509200387FEADFB73F6A9F77D
:2060A000CDF73AF65AF882FD20EADBD7F0DC33FDA4EB17F47FE8B1F614EC7CE4EFEC4EF63C
:2060C000A2FB51FD7506D407900D3003B00BB80768038AFE78F745FF4DF118FA4D05580E87
:2060E000140599EFFAF5EAFDCBFE0C0185E12AFC32FCFFF41EFA57FE04FEF3F571FC6CF87E
:206100006EFEA4FEB004C0FF5D0557FCD2093B07F3F9DE08F200ED054602350405F0C0FE42
:20612000F40042FE5F0A73FAD8FDB70D4C08880DB807C1FC170B03114107B2051B06440BB2
:206140000512A3FC16053812C80928FEF40CA70FF9E127EE94EC69FFF2FC71FF13E96512CF
:206160001F0E76125907F616C00C9309F116251A67084B0C14143F112D15921ADB176E06BE
:20618000EFFF0F1DE30FA3FC4CE707FE9CF150FAF2007C00FF03380855FDAB178D124A1484
:2061A00059115E09B10C7407A00F661F4B1BA305E50CB6067808CC0A19057422D020D1011B
:2061C000D4F95607ACFE1A00CB04C800C1FC7A003709460D96F944F1ABFF2BF8A60793029D
:2061E00077FF6819ED115F0272FD131FCF210622EF18952C3133AF1F89FE3C0007FE2101AC
:00000001FF
