:20000000BC1534FF0A15B0FBC027450D6FD56AF95FDF97CF6517F608481F4D12EEF24EEB35
:20002000C615B61441F0E2201AE1442446FA46F7F10BD1006CEEA31C58E1BF067C0FC219BE
:2000400074E9C1FFA9F60CB9F91E6110FB0561F601F3E7DAE1FD14C001148B1543147C1A37
:20006000373352F1E641561E3AEA09144AD832EE75F9481CCF0920CF15FA1D13E409880B5D
:20008000040AE0E208EA4911ADF59F0026137AF6DB2006E63327A80866049E0A120A7706BE
:2000A000A7F8DA1C8917C02876F01EDED4F9D8E8A908ACD78EFFDE1404FE3008C018AA11B4
:2000C0002FFD9BE29A105DE03FF33BD2962A9834ED1241ED7BC5F3FBD5FA2E261B00E41335
:2000E0002D054CF14AFBF019AEF55807EEF89EE2F7D82E0E9316812113008AF7CAF9D11E3F
:2001000027C003F2C004E21BDEE33E1812099B052E0F9213BE0AA70258C10D0C3CFD460C60
:20012000E4F0AAFFA61F8BF22900BA095B41B5E7AE034EFECBE4780C7FF4180248E75A1086
:2001400021085B3157F0BA15F820E913C2270403410E75167B27ECFC37E94F0F4D1373F427
:2001600006E9ABE0300A58FE98D32B0DA01A24EC1D13F5EB2A077A0171E7F6152C1BA3FF00
:20018000D3FE91F7A220A8EB53F99921EFD00C2C3BF4E63EA113EF06DAE456EAFDFD10159B
:2001A000B1ED05068B185414364EBB06D2F5CD0CE91EA0F4490114064821C8E1FF1742EF4E
:2001C0005B07C3078AFCD721C004102974CA3F1D2DF5D52211268A035EF528E5442859D507
:2001E0001B06D7CB86F129E3F2F3A4DAED0B451F101CDA073A07920CCC260502E90F260DEA
:00000001FF
