:200000004E2357D4B715120F8AE661F3C4EF59E39BDE7101D2063B3047F56300A8C041DF4F
:20002000AD130DFD68FEBECE3B10DEB15D0BFAF12B080D1B521C84253A0FAFF5F81347FB2B
:20004000ECF4C00788DB500450FC16F44CCFA803CBD9D3F86FEB8AC42226891F890BF40493
:200060001FC33A05651F58FD3BF2A8194AE17C13ED1074D39809F5EF8DF59218FC137EDC80
:2000800007FC380961CEB3FAC8D2220C5028A0D2C127730713C0A6FDD11682E8D9034FF842
:2000A00062E772FEC7E567DBA8048B2C8513AACD8AE88E25D50C36EAB7B0441BA7EE7FFD2A
:2000C00061F07ABC8315EDE665FB8BF37119B5F9DBD4EDBF17F0632017F918161ED25A1F8C
:2000E0001BF3730AAA195CF1A0F211F6F8E3F83BFB2784272D01B1C441280EEB69134DD350
:20010000BDCE561B81E8320E6D16C10144FF3CE71DDBB8C3FFF9E4085AF753ECDCE53405AE
:20012000F6FBAC072AEF82FA3B10301974E98B1291228B0CD0D11C4452E6CCFFA3A97EF1EF
:00000001FF
